0_0000000_0111111001 0_0000001_0101010010
0_0000000_1111010011 0_0000000_1111001101

0_0000001_0100101101 1_1111101_1100010100
0_0000000_1111101110 1_1111111_1101010010

1_1111111_0001101011 1_1111110_1000001100
0_0000001_1101010011 0_0000001_0001101000

0_0000010_0010001010 0_0000000_1010011010
1_1111111_1010101000 1_1111110_1110111000

1_1111111_0100011101 1_1111110_0110010010
1_1111101_1011011000 1_1111101_1110110111

1_1111110_1011011001 0_0000000_1100101000
1_1111110_0100000000 0_0000000_1011011101
