1_1111110_1011111100 0_0000000_1010000100
1_1111111_1000100110 1_1111111_0101001001

1_1111100_1110011001 1_1111101_1000001010
0_0000000_0110001000 1_1111111_1010110010

0_0000000_0100001100 1_1111111_0000011111
1_1111110_1011010010 1_1111111_0100101001

1_1111111_0100010001 1_1111111_1100001000
0_0000010_1101100100 0_0000010_1110111001

1_1111101_1100100101 1_1111101_0010101100
0_0000000_0011011101 1_1111111_1111010110

1_1111110_1111010000 0_0000001_0011011000
1_1111101_0101101101 1_1111111_0000110100
