0_0000000_0001111011 0_0000000_1110000010
1_1111101_1110010110 0_0000000_0111110000

0_0000000_0010111001 0_0000000_0110010011
1_1111110_0011111100 1_1111111_1110101000

1_1111101_1001000011 0_0000000_0100101000
1_1111101_1001010100 1_1111100_1000011100

0_0000000_1101000100 0_0000000_1001101000
1_1111110_1101011001 1_1111110_1011100110

0_0000001_1010110101 0_0000000_0000100101
0_0000001_1110101110 0_0000000_1111010011

1_1111111_0011110011 1_1111111_0101011100
0_0000001_1001110000 0_0000000_1111010110
