0_0000001_1101111010 0_0000001_1001101100
0_0000001_1100011100 0_0000000_1111100010

1_1111111_1001001101 1_1111111_1111010101
1_1111110_1100010011 0_0000000_1011011101

1_1111110_1100011101 0_0000010_0101111001
0_0000000_1011110110 0_0000000_1001001011

0_0000000_1100000011 0_0000000_0010000100
0_0000010_0110011110 0_0000000_1000001101

0_0000000_0001010100 1_1111110_0110110110
1_1111101_1101011111 1_1111111_0001000101

1_1111101_1011101011 1_1111111_0010001101
0_0000000_0100010010 0_0000000_1000111000
