1_1111110_1001110001 1_1111111_1100010110
1_1111111_0100000011 1_1111110_1010000010

0_0000001_0101011000 1_1111110_1111010010
0_0000001_0100111010 0_0000001_1100110010

1_1111111_1110111011 1_1111111_1000110101
0_0000000_0110101101 0_0000000_1000010101

1_1111111_1110101010 0_0000000_0101101011
0_0000001_0100111010 1_1111111_0010010000

0_0000000_1000100011 0_0000010_1000001001
1_1111110_0100111101 1_1111110_1100110011

1_1111111_0001111100 1_1111110_0010011110
0_0000000_1101110001 0_0000000_1111110100
