0_0000010_0000000000 0_0000001_0100001101
1_1111111_1111110000 0_0000001_1111111010

0_0000000_1100110001 0_0000010_1011011011
1_1111110_1010110001 1_1111111_1011001110

0_0000001_1101010101 1_1111111_1001001110
0_0000001_0101111111 1_1111101_1110001000

1_1111111_1000110000 0_0000001_0101100011
1_1111111_1100010010 1_1111111_1000001011

1_1111110_0011010011 1_1111110_1010101001
1_1111110_1110101101 0_0000000_1100110101

1_1111110_1001011111 0_0000001_0111110011
1_1111011_1000111001 1_1111110_0100100011
