0_0000000_0111000110 1_1111111_1110110111
1_1111101_1001111001 1_1111111_0001011011

1_1111111_1011100100 0_0000010_0000001010
1_1111110_0110111000 0_0000001_0000100010

0_0000001_0010110110 1_1111111_0111111100
0_0000000_0011100110 0_0000000_0111111011

1_1111101_0011101110 1_1111111_1010110110
1_1111101_0001110100 1_1111111_0100010010

1_1111110_1100011000 0_0000011_0010011000
0_0000000_1010100001 1_1111110_0011001111

1_1111101_1111100011 0_0000000_0101010100
0_0000001_0111111001 0_0000000_1011010101
