1_1111111_0011100101 1_1111111_1100011011
0_0000000_1100100101 1_1111111_0101110110

0_0000001_0100110110 0_0000000_1000101101
1_1111110_1101110001 0_0000000_0100111100

0_0000000_0001101000 0_0000000_0001111000
1_1111111_0101010011 0_0000000_0001101001

1_1111111_1111011000 0_0000000_0110100111
0_0000010_1110001001 1_1111111_0110110011

1_1111111_0110111010 0_0000010_0000001111
1_1111111_1111100100 0_0000000_0001000110

1_1111111_1011001110 0_0000000_1000011110
1_1111100_0100100110 1_1111110_0011100001
