0_0000000_1101111010 0_0000001_1000000000
0_0000000_1111000011 0_0000000_1001011101

1_1111110_0000101101 1_1111110_0100001010
1_1111110_0111011010 0_0000001_0111110101

0_0000001_1111001101 0_0000000_0010100000
0_0000000_0110001010 0_0000000_1000001110

0_0000000_0011100011 1_1111110_1100101101
0_0000000_1111001111 1_1111111_1111001000

1_1111101_1000011010 1_1111110_0001011001
1_1111111_1001000000 0_0000001_0101000100

1_1111110_1011010010 0_0000000_0100011011
1_1111101_1011111011 0_0000001_1100101101
