// Top left corner is (2, 2)

# Channel 0 #
18'b1_1111101_1001100110, 18'b1_1111110_0010110100, 18'b0_0000011_1100100110
18'b1_1111110_0101110011, 18'b1_1111101_1100111111, 18'b0_0000100_0101111001
18'b1_1111110_0010101110, 18'b1_1111101_0001111001, 18'b0_0000011_0000010110

# Channel 1 #
18'b1_1111110_0110100010, 18'b1_1111011_1010010001, 18'b1_1111111_0010100110
18'b1_1111101_1000011000, 18'b0_0000001_1000101111, 18'b0_0000100_1011010101
18'b0_0000010_1010110010, 18'b0_0000010_1110001100, 18'b0_0000000_1110001101

# Channel 2 #
'{'{18'b0_0000010_1001011010, 18'b0_0000010_0000111001, 18'b1_1111011_0010000001}
'{18'b0_0000010_1000001101, 18'b0_0000001_0110001110, 18'b1_1111100_0010101110}
'{18'b0_0000010_1111001011, 18'b1_1111101_1110001101, 18'b1_1111010_1110011111}},

# Channel 3 #
'{'{18'b0_0000100_0111111001, 18'b0_0000001_1101011110, 18'b1_1111110_0110010100},
'{18'b1_1111110_1000011111, 18'b0_0000010_0000100011, 18'b0_0000000_0011010010},
'{18'b1_1111100_0011010110, 18'b1_1111111_1101111010, 18'b0_0000001_0101010101}},

# Channel 4 #
'{'{18'b1_1111011_1011100001, 18'b1_1111100_0100111000, 18'b1_1111010_1111011101},
'{18'b0_0000010_0000011110, 18'b1_1111111_1000011101, 18'b1_1111010_0101000010},
'{18'b0_0000101_1101110100, 18'b0_0000100_0001001001, 18'b0_0000001_0010000001}},

# Channel 5 #
'{18'b1_1111110_1011011110, 18'b1_1111110_1100110010, 18'b1_1111100_1111100100},
'{18'b1_1111101_0010000011, 18'b1_1111110_1100011110, 18'b1_1111101_1101111101},
'{18'b1_1111100_0111110010, 18'b0_0000010_1001001101, 18'b0_0000000_1000011110}

