18'b0_0000000_0010011101,18'b1_1111111_0011011110,18'b1_1111111_1000000111,18'b0_0000000_0111110111,
18'b1_1111111_0000011101,18'b1_1111110_1110111011,18'b1_1111111_1011100001,18'b1_1111111_1010001001,
18'b1_1111111_0101000110,18'b1_1111110_0101110100,18'b1_1111101_1000000001,18'b0_0000000_0011101000,
18'b0_0000000_1000110101,18'b1_1111110_0010000010,18'b1_1111111_1000100001,18'b0_0000000_0111101011,
18'b1_1111110_1001100010,18'b0_0000001_1001111001,18'b1_1111111_0101101100,18'b1_1111111_0001110011
