1_1111111_1001001010
1_1111111_0001110000
1_1111110_0110010000
0_0000010_1101110111
1_1111111_1010010001
0_0000000_0000001010
0_0000000_1010011000
1_1111110_1010011110
0_0000011_0101101101
0_0000010_0110100000
1_1111111_0111100110
1_1111101_1001111000
1_1111111_0101001101
1_1111111_0100111010
0_0000010_0100101001
1_1111110_0010010011
0_0000000_1110111000
0_0000000_1110000010
0_0000001_0101100100
1_1111111_0100001001
