0_0000010_0111110001
0_0000010_0100001111
1_1111111_0100100000
1_1111110_0110111001
0_0000000_1001001010
1_1111111_0100111010
1_1111110_0100110011
1_1111110_1100101111
0_0000000_1101001111
1_1111111_1010111100
0_0000011_1000100001
0_0000000_0110111110
0_0000000_1010101100
0_0000001_1001111001
1_1111111_1011100011
1_1111111_0100101101
0_0000000_1000011101
0_0000001_0010101101
1_1111110_1101110001
1_1111111_1101101011
