0_0000000_1010000101
0_0000001_1011000111
1_1111101_1111010100
1_1111110_1001010010
1_1111110_0010111100
1_1111111_1001101000
0_0000000_1000010110
1_1111111_1000101111
1_1111101_1001101100
0_0000011_0010000001
0_0000000_0110000010
1_1111111_1100010001
1_1111111_0110000001
0_0000001_0000001100
1_1111111_0100010010
0_0000000_0010110000
1_1111101_0100101100
1_1111111_0001010101
0_0000001_1110000110
0_0000010_0101100001
