1_1111111_1111111101
1_1111101_1100101100
0_0000000_0101010110
0_0000001_1001011101
0_0000000_0000111111
0_0000101_0000010111
1_1111111_0111110010
0_0000011_1100110010
0_0000010_0101001010
1_1111101_0000100011
1_1111111_0101100011
0_0000000_1011110110
1_1111111_0110001011
1_1111101_0001011111
0_0000011_0000111011
0_0000000_0011001101
0_0000010_0011111011
1_1111101_1101001001
1_1111101_0110100001
0_0000000_1001001111
