1_1111111_1000011010
1_1111111_0100000101
0_0000000_0100110111
1_1111101_0111000101
0_0000001_0001101000
0_0000010_0001010101
0_0000001_0000011001
1_1111111_1111101011
1_1111101_1000110011
1_1111101_0001101101
0_0000000_1010011001
1_1111111_1101011010
1_1111110_0001000101
0_0000010_0100011011
1_1111110_1101110001
0_0000001_0010100111
1_1111110_1110111010
0_0000001_0010111001
0_0000010_1111111101
1_1111101_0111011100
