1_1111111_1010100100
1_1111111_1011011111
0_0000010_1101100011
1_1111101_1010000110
0_0000001_1110110101
1_1111110_0101011100
1_1111111_1000010101
1_1111110_1010110001
1_1111111_0011011100
0_0000011_0000100100
0_0000001_1111101010
0_0000001_1001011110
1_1111110_1101011000
0_0000010_0001011011
1_1111010_0011111001
0_0000001_1000010011
1_1111101_1001000110
0_0000010_0101000110
0_0000001_0111100010
1_1111100_0111111110
