1_1111100_1101110000
0_0000000_1111000011
0_0000100_0000101011
0_0000001_1111101111
1_1111100_0110010110
1_1111011_1000001011
0_0000000_0101000010
0_0000010_1000100000
0_0000000_0101001111
0_0000000_0010011010
1_1111111_1000001110
0_0000011_0100101000
1_1111111_0010101111
1_1111101_1101110100
1_1111110_1100010010
1_1111101_1001111101
0_0000000_0110000111
1_1111110_0110110101
1_1111110_1110110101
0_0000001_1000111111
