1_1111111_1111111111
0_0000000_1001110011
0_0000000_0011010101
1_1111110_1100000110
1_1111111_0110010010
0_0000000_1111110000
0_0000010_0101111101
0_0000010_0011010011
1_1111111_0101001011
1_1111111_1110110001
1_1111010_1011111000
1_1111111_1011010101
1_1111111_1101011011
1_1111110_1011100011
1_1111111_1101111101
0_0000010_0001010101
0_0000000_0101000110
1_1111110_0001000001
1_1111111_0100110000
0_0000010_1000101111
