0_0000000_1000010010
1_1111110_0000110100
0_0000010_0001001101
0_0000001_0011011100
1_1111111_1000001101
1_1111110_1110100110
1_1111101_0001100101
0_0000001_0001110000
1_1111111_0011000111
1_1111100_1100010100
0_0000000_1010111000
1_1111110_0110110010
0_0000001_0000111000
0_0000000_1001000010
0_0000010_0010101010
1_1111111_0000100010
0_0000001_0001101110
0_0000010_0000110010
1_1111110_1000001101
0_0000001_0010000010
