0_0000000_1100100001
0_0000000_1101110001
1_1111011_0001011010
0_0000001_0100110110
0_0000000_1101110001
0_0000000_0010010000
0_0000000_1100111111
1_1111100_0101000111
0_0000001_0011101000
0_0000000_1011011011
0_0000000_0011010111
1_1111111_0101001111
0_0000101_0101010111
1_1111110_0100100000
0_0000010_1000100111
0_0000000_0000010101
0_0000001_0010101010
1_1111110_0110010001
1_1111111_1111101010
1_1111111_1111100100
