0_0000001_0101000100 0_0000000_0000100010
1_1111111_1111011010 0_0000000_0101111011

1_1111110_1011110011 1_1111111_0001011010
1_1111101_1011101111 0_0000001_0010110000

0_0000001_1111110100 1_1111110_1100101110
0_0000001_1011101100 0_0000000_0100111100

1_1111111_0110001110 0_0000001_1100011001
0_0000000_1010111111 0_0000000_0110101100

1_1111100_0010101100 1_1111011_0100011110
1_1111110_0000101011 1_1111110_1100011010

1_1111111_0000111101 0_0000010_0110011010
1_1111101_1111101000 1_1111111_0000110011
