1_1111111_1111111101 0_0000000_1000001001
1_1111110_1010100001 0_0000000_1010000010

0_0000010_1111000000 1_1111111_0011000110
1_1111110_1001110110 1_1111101_1011111010

1_1111111_1010000010 0_0000001_0000110011
1_1111100_0001110101 1_1111100_0001000010

0_0000000_0110111101 1_1111111_1000101001
0_0000000_1110010001 1_1111111_0100101001

0_0000001_0000001110 1_1111110_1011011010
0_0000001_0101010011 1_1111110_0100011111

0_0000000_0101010110 1_1111111_1011011110
0_0000000_0100000111 0_0000000_0000001011
