1_1111110_1111101101 0_0000000_0010000011
0_0000000_0011000010 0_0000001_0000110100

1_1111101_0101000011 1_1111110_1000010011
0_0000000_1011110100 0_0000000_1011111111

1_1111111_1100001010 1_1111110_1100100111
1_1111110_1100101100 1_1111111_1011101110

0_0000000_1100010011 0_0000000_0000001000
0_0000001_0001110100 1_1111111_0000111001

0_0000001_1010111100 0_0000001_0100110010
1_1111111_0000001000 0_0000001_0010001101

1_1111111_0100111010 1_1111111_1010000100
1_1111111_0100101011 0_0000001_0011011101
