1_1111111_0100001101 0_0000000_1010110100
0_0000000_1100101110 0_0000000_0111111011

0_0000000_1111011101 0_0000000_1010101101
1_1111110_1001010111 1_1111110_1100101010

1_1111110_1011001011 0_0000000_0100001111
0_0000000_0100111111 0_0000001_0011101100

1_1111111_1111111011 1_1111111_1011001101
0_0000001_0001010110 0_0000000_0010100000

0_0000000_1111001101 0_0000000_1000100001
0_0000000_0110100011 1_1111101_0000100010

1_1111111_1101011101 0_0000000_0111101001
1_1111110_0011111110 1_1111110_0110100011
