1_1111101_1110110000 0_0000000_0000011101
0_0000001_0001110110 0_0000010_0000001011

1_1111110_1101001000 0_0000000_0000101100
1_1111111_1100100011 1_1111110_0111111100

1_1111110_1101111010 1_1111111_1010010110
0_0000001_1100000110 0_0000000_1010110001

1_1111111_0001011001 1_1111111_0000110110
0_0000000_1110100011 0_0000000_0001001101

0_0000000_1111000011 0_0000010_0000010110
1_1111111_0000011110 0_0000000_0000001100

1_1111111_0100011101 1_1111111_0000100011
0_0000000_1111011110 0_0000000_1100100001
