1_1111110_1100010111 1_1111111_0110100100
0_0000000_1101110111 0_0000000_1010011110

1_1111110_0001010001 1_1111110_0011001001
0_0000000_0110011010 0_0000000_0010111110

1_1111111_0111101100 1_1111111_1011110010
0_0000001_1101001001 0_0000000_0111111111

1_1111111_0011110101 1_1111101_0101110111
1_1111111_1011011110 0_0000001_0111010101

1_1111110_1111101101 1_1111110_0101101100
1_1111110_1011011010 0_0000001_1110111100

1_1111110_0101011100 1_1111111_1011101101
0_0000001_0111001111 0_0000010_1001010010
