0_0000000_1001011100 1_1111111_0100110111
0_0000001_0111010110 1_1111111_1100110010

1_1111111_1010110010 0_0000011_1100101101
1_1111011_1111111000 0_0000000_0000110010

0_0000001_1001100111 0_0000001_0000011000
1_1111110_1000011100 1_1111111_1111000100

1_1111111_1001010110 0_0000000_0100001010
0_0000001_0111101111 0_0000010_0011011010

1_1111101_1111011101 1_1111111_0101001011
0_0000001_1010110011 1_1111111_1011100010

1_1111101_0101111000 1_1111111_0000000011
1_1111101_1010010100 1_1111111_0101110111
