0_0000000_0100000101 0_0000001_1111100111
1_1111111_1101000110 1_1111110_0101100000

1_1111110_1110111001 0_0000001_0000000100
1_1111110_1001101111 1_1111111_1101010100

0_0000011_0001011111 0_0000000_0001001110
1_1111110_0111100000 1_1111111_1001011110

0_0000000_0010100111 1_1111110_1100101011
1_1111111_1100110011 0_0000000_1000101100

0_0000001_1110011111 1_1111101_1111000000
1_1111100_0000001111 1_1111110_1111101001

0_0000000_0101010100 1_1111111_1001010110
0_0000000_0001011110 1_1111111_1100011001
