1_1111100_1101010001 1_1111110_1011100100
1_1111111_1010101101 1_1111110_1101100001

1_1111101_0101010101 1_1111110_0100010110
1_1111111_1001001000 1_1111110_1010011111

1_1111110_1010110001 0_0000000_0001111101
0_0000010_1000010101 0_0000000_0101000001

0_0000000_1101101010 1_1111111_1001001110
0_0000011_0011100010 0_0000001_0000001110

0_0000001_0001000001 0_0000010_1111010000
1_1111111_0110111101 0_0000000_0011100101

1_1111111_0110010000 1_1111111_0010011111
1_1111101_0011110111 1_1111101_0100010110
