0_0000000_1011011000 0_0000000_0010000001
1_1111110_1010101101 0_0000000_0001010001

1_1111111_1110111101 0_0000010_0101100010
1_1111111_0101011110 1_1111111_1010100000

0_0000001_0100001101 0_0000001_0100101100
1_1111110_1000100100 0_0000000_1101110111

1_1111111_1010100111 1_1111110_1110010100
1_1111110_0010111110 1_1111110_1011010010

1_1111111_0000100110 1_1111111_0001100100
0_0000001_0000001011 1_1111110_0001001011

1_1111111_1011100010 1_1111111_0100010011
0_0000010_0000000100 0_0000000_0100110111
