1_1111110_0100111001 1_1111111_1100101111
1_1111111_1111000010 0_0000000_0110101010

1_1111101_0110101011 1_1111111_0100000111
1_1111111_0010110101 1_1111111_1001000001

0_0000010_1111011011 0_0000000_0111010111
0_0000010_0101010000 0_0000000_1111100010

1_1111110_1100011001 0_0000001_1001101100
1_1111111_0101100000 1_1111110_1110111010

0_0000000_1101110100 0_0000000_0110101110
1_1111101_1100011001 1_1111111_1101101000

1_1111110_1001100100 1_1111101_0110100111
0_0000001_0011110010 1_1111111_0110111000
